#include <cstdint>

alignas(8) const unsigned char motor_model_data[] = {
0x1c, 0x00, 0x00, 0x00, 0x54, 0x46, 0x4c, 0x33, 0x14, 0x00, 0x20, 0x00, 
0x1c, 0x00, 0x18, 0x00, 0x14, 0x00, 0x10, 0x00, 0x0c, 0x00, 0x00, 0x00, 
0x08, 0x00, 0x04, 0x00, 0x14, 0x00, 0x00, 0x00, 0x1c, 0x00, 0x00, 0x00, 
0x98, 0x00, 0x00, 0x00, 0xf0, 0x00, 0x00, 0x00, 0xdc, 0x07, 0x00, 0x00, 
0xec, 0x07, 0x00, 0x00, 0xb0, 0x0d, 0x00, 0x00, 0x03, 0x00, 0x00, 0x00, 
0x01, 0x00, 0x00, 0x00, 0x10, 0x00, 0x00, 0x00, 0x00, 0x00, 0x0a, 0x00, 
0x10, 0x00, 0x0c, 0x00, 0x08, 0x00, 0x04, 0x00, 0x0a, 0x00, 0x00, 0x00, 
0x0c, 0x00, 0x00, 0x00, 0x1c, 0x00, 0x00, 0x00, 0x3c, 0x00, 0x00, 0x00, 
0x0f, 0x00, 0x00, 0x00, 0x73, 0x65, 0x72, 0x76, 0x69, 0x6e, 0x67, 0x5f, 
0x64, 0x65, 0x66, 0x61, 0x75, 0x6c, 0x74, 0x00, 0x01, 0x00, 0x00, 0x00, 
0x04, 0x00, 0x00, 0x00, 0x90, 0xff, 0xff, 0xff, 0x0a, 0x00, 0x00, 0x00, 
0x04, 0x00, 0x00, 0x00, 0x08, 0x00, 0x00, 0x00, 0x6f, 0x75, 0x74, 0x70, 
0x75, 0x74, 0x5f, 0x30, 0x00, 0x00, 0x00, 0x00, 0x01, 0x00, 0x00, 0x00, 
0x04, 0x00, 0x00, 0x00, 0x0a, 0xf8, 0xff, 0xff, 0x04, 0x00, 0x00, 0x00, 
0x0e, 0x00, 0x00, 0x00, 0x6b, 0x65, 0x72, 0x61, 0x73, 0x5f, 0x74, 0x65, 
0x6e, 0x73, 0x6f, 0x72, 0x5f, 0x34, 0x00, 0x00, 0x02, 0x00, 0x00, 0x00, 
0x34, 0x00, 0x00, 0x00, 0x04, 0x00, 0x00, 0x00, 0xdc, 0xff, 0xff, 0xff, 
0x0d, 0x00, 0x00, 0x00, 0x04, 0x00, 0x00, 0x00, 0x13, 0x00, 0x00, 0x00, 
0x43, 0x4f, 0x4e, 0x56, 0x45, 0x52, 0x53, 0x49, 0x4f, 0x4e, 0x5f, 0x4d, 
0x45, 0x54, 0x41, 0x44, 0x41, 0x54, 0x41, 0x00, 0x08, 0x00, 0x0c, 0x00, 
0x08, 0x00, 0x04, 0x00, 0x08, 0x00, 0x00, 0x00, 0x0c, 0x00, 0x00, 0x00, 
0x04, 0x00, 0x00, 0x00, 0x13, 0x00, 0x00, 0x00, 0x6d, 0x69, 0x6e, 0x5f, 
0x72, 0x75, 0x6e, 0x74, 0x69, 0x6d, 0x65, 0x5f, 0x76, 0x65, 0x72, 0x73, 
0x69, 0x6f, 0x6e, 0x00, 0x0e, 0x00, 0x00, 0x00, 0xe8, 0x06, 0x00, 0x00, 
0xe0, 0x06, 0x00, 0x00, 0x10, 0x06, 0x00, 0x00, 0x00, 0x02, 0x00, 0x00, 
0xe4, 0x01, 0x00, 0x00, 0x94, 0x01, 0x00, 0x00, 0x44, 0x01, 0x00, 0x00, 
0xb4, 0x00, 0x00, 0x00, 0xac, 0x00, 0x00, 0x00, 0xa4, 0x00, 0x00, 0x00, 
0x9c, 0x00, 0x00, 0x00, 0x94, 0x00, 0x00, 0x00, 0x74, 0x00, 0x00, 0x00, 
0x04, 0x00, 0x00, 0x00, 0xbe, 0xf8, 0xff, 0xff, 0x04, 0x00, 0x00, 0x00, 
0x60, 0x00, 0x00, 0x00, 0x0c, 0x00, 0x00, 0x00, 0x08, 0x00, 0x0e, 0x00, 
0x08, 0x00, 0x04, 0x00, 0x08, 0x00, 0x00, 0x00, 0x10, 0x00, 0x00, 0x00, 
0x28, 0x00, 0x00, 0x00, 0x00, 0x00, 0x06, 0x00, 0x08, 0x00, 0x04, 0x00, 
0x06, 0x00, 0x00, 0x00, 0x04, 0x00, 0x00, 0x00, 0x01, 0x00, 0x00, 0x00, 
0xea, 0x03, 0x00, 0x00, 0x0c, 0x00, 0x18, 0x00, 0x14, 0x00, 0x10, 0x00, 
0x0c, 0x00, 0x04, 0x00, 0x0c, 0x00, 0x00, 0x00, 0xab, 0x92, 0xd6, 0x7c, 
0x16, 0xb8, 0xfb, 0x90, 0x02, 0x00, 0x00, 0x00, 0x02, 0x00, 0x00, 0x00, 
0x04, 0x00, 0x00, 0x00, 0x06, 0x00, 0x00, 0x00, 0x32, 0x2e, 0x31, 0x39, 
0x2e, 0x30, 0x00, 0x00, 0x2a, 0xf9, 0xff, 0xff, 0x04, 0x00, 0x00, 0x00, 
0x10, 0x00, 0x00, 0x00, 0x31, 0x2e, 0x35, 0x2e, 0x30, 0x00, 0x00, 0x00, 
0x00, 0x00, 0x00, 0x00, 0x00, 0x00, 0x00, 0x00, 0x34, 0xf4, 0xff, 0xff, 
0x38, 0xf4, 0xff, 0xff, 0x3c, 0xf4, 0xff, 0xff, 0x40, 0xf4, 0xff, 0xff, 
0x56, 0xf9, 0xff, 0xff, 0x04, 0x00, 0x00, 0x00, 0x80, 0x00, 0x00, 0x00, 
0x1c, 0xb5, 0x0f, 0xbf, 0xee, 0xea, 0x7b, 0xbe, 0x38, 0x67, 0x12, 0xbe, 
0x02, 0x90, 0x69, 0xbe, 0x29, 0x58, 0xbb, 0x3e, 0x8f, 0x95, 0x28, 0x3f, 
0x4e, 0x54, 0xd3, 0x3e, 0xe9, 0xee, 0x33, 0x3f, 0x8f, 0x13, 0x03, 0x3f, 
0x64, 0x50, 0xf2, 0x3e, 0xb6, 0x1d, 0x38, 0x3e, 0xa4, 0x4d, 0xfe, 0x3e, 
0x39, 0x58, 0x2c, 0x3f, 0x82, 0xc8, 0x7c, 0xbf, 0xe6, 0x74, 0x31, 0x3f, 
0x58, 0x5e, 0x83, 0x3e, 0x28, 0xc1, 0xc6, 0xbe, 0x10, 0x9e, 0xad, 0xbe, 
0xbd, 0xf4, 0x93, 0xbe, 0x17, 0xeb, 0x08, 0x3e, 0x60, 0x61, 0x35, 0xbf, 
0x95, 0x96, 0xd7, 0x3e, 0x1d, 0x8c, 0x13, 0xbf, 0xb0, 0x93, 0x87, 0xbd, 
0x85, 0xed, 0x64, 0x3e, 0x4a, 0xcb, 0x2e, 0xbf, 0x07, 0xb9, 0x57, 0xbf, 
0x9f, 0x2d, 0xe5, 0x3e, 0xda, 0xc5, 0x23, 0x3f, 0xa5, 0x72, 0x3f, 0x3f, 
0x20, 0x69, 0x63, 0xbd, 0xf0, 0x66, 0xd3, 0xbd, 0xe2, 0xf9, 0xff, 0xff, 
0x04, 0x00, 0x00, 0x00, 0x40, 0x00, 0x00, 0x00, 0x00, 0x00, 0x00, 0x00, 
0xe8, 0x31, 0x19, 0x3f, 0xc6, 0xa9, 0x99, 0xbe, 0xfa, 0x15, 0x5f, 0xbe, 
0x03, 0x9e, 0x3c, 0x3e, 0x82, 0xcf, 0xe2, 0x3e, 0xfd, 0x95, 0x82, 0x3e, 
0x03, 0x3d, 0x2f, 0xbe, 0x00, 0x00, 0x00, 0x00, 0x79, 0x87, 0x05, 0x3f, 
0x14, 0x77, 0x2a, 0x3e, 0x00, 0x00, 0x00, 0x00, 0x8a, 0xa6, 0x6d, 0x3e, 
0x84, 0x72, 0x98, 0x3e, 0x77, 0x42, 0xb5, 0xbe, 0x00, 0x00, 0x00, 0x00, 
0x2e, 0xfa, 0xff, 0xff, 0x04, 0x00, 0x00, 0x00, 0x40, 0x00, 0x00, 0x00, 
0xd9, 0xe4, 0x46, 0xbd, 0x7e, 0x27, 0xad, 0x3e, 0xa1, 0xe4, 0x0a, 0x3d, 
0x99, 0xea, 0xca, 0x3e, 0x12, 0x38, 0x51, 0xbb, 0x9c, 0x1d, 0xfc, 0x3e, 
0x28, 0xaa, 0x15, 0x3e, 0xf8, 0x98, 0x5b, 0xbc, 0x05, 0xc6, 0xc4, 0xbb, 
0x4f, 0x05, 0x0e, 0xbd, 0x95, 0x4d, 0x1b, 0x3e, 0x37, 0xd3, 0x0a, 0x3f, 
0x00, 0x00, 0x00, 0x00, 0x50, 0x77, 0x86, 0x3e, 0xc9, 0x1b, 0xdf, 0x3e, 
0x96, 0x87, 0xc6, 0xbc, 0x7a, 0xfa, 0xff, 0xff, 0x04, 0x00, 0x00, 0x00, 
0x0c, 0x00, 0x00, 0x00, 0xe5, 0x1a, 0xc5, 0x3d, 0x0c, 0x35, 0x83, 0x3d, 
0xc8, 0xf5, 0x81, 0xbe, 0x92, 0xfa, 0xff, 0xff, 0x04, 0x00, 0x00, 0x00, 
0x00, 0x04, 0x00, 0x00, 0x91, 0xea, 0xa5, 0xbe, 0x53, 0x85, 0x29, 0xbf, 
0x03, 0x5d, 0x86, 0x3e, 0x8d, 0xd4, 0x0a, 0x3e, 0xdd, 0x55, 0x02, 0x3f, 
0xa1, 0x70, 0xc4, 0x3e, 0x3f, 0x02, 0xac, 0xbf, 0x0b, 0xd6, 0xe1, 0x3e, 
0xf2, 0xc1, 0x6c, 0x3e, 0xf6, 0xe8, 0x81, 0xbd, 0x44, 0x4c, 0xc3, 0xbf, 
0x04, 0xa5, 0x0e, 0xbe, 0xa6, 0xeb, 0xaa, 0xbf, 0xac, 0x80, 0xc0, 0xbf, 
0x55, 0xe1, 0x9a, 0x3e, 0x7a, 0x00, 0x0a, 0xbe, 0xee, 0x7d, 0x74, 0xbe, 
0x49, 0xc6, 0xa7, 0x3c, 0x69, 0x34, 0x68, 0xbe, 0xfc, 0x36, 0x26, 0xbe, 
0xf4, 0x8a, 0xc5, 0xbc, 0x09, 0x3c, 0xc1, 0xbe, 0x24, 0xa0, 0xaa, 0x3f, 
0x0f, 0x52, 0xfe, 0xbe, 0x34, 0x65, 0x0a, 0xbe, 0x45, 0xdb, 0xdd, 0x3e, 
0x1f, 0xa3, 0x99, 0x3f, 0x8b, 0x0d, 0x84, 0x3e, 0x10, 0xda, 0x0a, 0x40, 
0xd5, 0x00, 0xdb, 0x3f, 0x38, 0x5e, 0x47, 0xbe, 0xa2, 0x01, 0x32, 0xbe, 
0x8a, 0xe5, 0x8f, 0xbe, 0x65, 0x0f, 0x2f, 0x3b, 0xc1, 0xae, 0xb0, 0xbe, 
0x7f, 0xbd, 0x4d, 0xbe, 0x0e, 0xe9, 0x0f, 0x3d, 0x78, 0x28, 0x32, 0x3e, 
0xce, 0x9f, 0x8f, 0x3f, 0xbf, 0x1e, 0x81, 0xbd, 0x44, 0x40, 0xb6, 0xbe, 
0x84, 0x2e, 0xc6, 0xbe, 0xe3, 0x3a, 0x30, 0x3f, 0x2d, 0x31, 0x92, 0x3e, 
0xa2, 0x4e, 0x7b, 0x3f, 0x5f, 0x75, 0xb5, 0x3f, 0x36, 0xcb, 0x7c, 0xbd, 
0xbd, 0xee, 0xa6, 0x3e, 0x50, 0x68, 0x9f, 0xbd, 0x08, 0x7b, 0x38, 0x3f, 
0xa0, 0x8f, 0xd2, 0xbe, 0xf2, 0xa7, 0xae, 0xbe, 0xf0, 0xc2, 0x58, 0x3e, 
0x2b, 0xb0, 0xfa, 0x3e, 0xf5, 0xfd, 0x04, 0x40, 0xbc, 0x3b, 0x04, 0xbf, 
0xd1, 0xf2, 0xd0, 0x3e, 0xf8, 0xc5, 0x02, 0x3f, 0xc6, 0x16, 0xb6, 0x3f, 
0x88, 0x52, 0x52, 0x3d, 0x25, 0x77, 0x94, 0x3f, 0xae, 0xc4, 0x09, 0x40, 
0x52, 0xa2, 0x27, 0xbf, 0xed, 0x33, 0x92, 0x3e, 0x9d, 0xe5, 0x95, 0x3e, 
0x81, 0xc0, 0xa6, 0x3e, 0x65, 0x19, 0x35, 0x3f, 0xb5, 0xe5, 0x0e, 0x3f, 
0x5a, 0x06, 0x2c, 0x3f, 0xcf, 0x62, 0x77, 0x3e, 0x42, 0x47, 0x9b, 0xbf, 
0x49, 0x11, 0x73, 0x3f, 0x9e, 0x01, 0x19, 0x3e, 0x3c, 0xcc, 0x19, 0xbe, 
0x2d, 0x0d, 0x57, 0xbf, 0x0c, 0xb4, 0x5b, 0xbe, 0x68, 0x17, 0xdc, 0xbf, 
0x60, 0x53, 0x5a, 0xbf, 0xe3, 0x2c, 0x02, 0x3f, 0xde, 0xad, 0x45, 0x3e, 
0x3a, 0xd3, 0x89, 0xbe, 0xbb, 0x41, 0x4f, 0x3f, 0xfe, 0x3b, 0x38, 0xbf, 
0x34, 0x92, 0xa3, 0xbe, 0xd5, 0x6d, 0xf2, 0xbd, 0x82, 0xe6, 0xf5, 0x3e, 
0xb7, 0x65, 0x32, 0x40, 0xaa, 0xd9, 0x03, 0xbf, 0x84, 0xb0, 0xcb, 0x3d, 
0xaf, 0xdb, 0x3a, 0x3f, 0xef, 0x3d, 0x6c, 0x3f, 0x4b, 0x2c, 0x72, 0xbe, 
0x2b, 0x12, 0x97, 0x3f, 0x2b, 0xfd, 0x19, 0x40, 0xb4, 0xb7, 0x88, 0xbe, 
0xa5, 0x7b, 0xdb, 0x3e, 0x37, 0x7a, 0xc9, 0x3e, 0x26, 0x22, 0xf1, 0x3e, 
0x42, 0xed, 0x90, 0x3e, 0x64, 0xd0, 0x30, 0x3f, 0x32, 0xde, 0xb9, 0x3e, 
0xc8, 0xef, 0x01, 0x3f, 0x36, 0x15, 0x83, 0xbf, 0xee, 0xa7, 0xa8, 0x3e, 
0xc8, 0xad, 0x87, 0xbd, 0x84, 0x2a, 0x02, 0x3f, 0x15, 0xdd, 0x30, 0xbf, 
0xeb, 0x8d, 0x47, 0xbe, 0x52, 0x1d, 0xc8, 0xbf, 0x9f, 0xad, 0xc2, 0xbf, 
0xb6, 0x8c, 0x1a, 0x3f, 0xfb, 0xb2, 0xb2, 0x3e, 0xb7, 0x90, 0xc1, 0xbe, 
0x7d, 0xa7, 0x44, 0xbe, 0x46, 0x5f, 0xc3, 0x3d, 0x77, 0xab, 0x7d, 0xbe, 
0x75, 0x26, 0x82, 0xbe, 0xc1, 0x44, 0x94, 0x3e, 0xb1, 0x45, 0x79, 0xbe, 
0xcd, 0x9e, 0xc8, 0xbe, 0x76, 0x94, 0x2b, 0x3e, 0xcf, 0xf2, 0xc1, 0xbe, 
0x57, 0xf7, 0x19, 0x3d, 0x42, 0x76, 0xb9, 0xbe, 0xa7, 0xe1, 0xea, 0x3d, 
0xc5, 0x8b, 0x1c, 0xbe, 0x7f, 0x79, 0x5d, 0xbd, 0xec, 0x10, 0xe8, 0x3d, 
0x0d, 0x2c, 0xbc, 0x3e, 0xbe, 0x1c, 0x51, 0x3e, 0x54, 0x64, 0x54, 0xbe, 
0x03, 0xc1, 0x61, 0x3d, 0x0d, 0xb3, 0x36, 0x3e, 0xed, 0x71, 0xcc, 0xbe, 
0x38, 0xd1, 0xc5, 0xbe, 0xcc, 0x5f, 0x17, 0xbd, 0xff, 0x80, 0x81, 0x3e, 
0x9b, 0x9e, 0x23, 0xbc, 0xe4, 0xf7, 0x2a, 0xbe, 0x57, 0x9d, 0xc7, 0x3e, 
0x7d, 0xa9, 0xf2, 0x3a, 0xd7, 0x6c, 0x02, 0xbe, 0x58, 0xc1, 0x85, 0x3e, 
0x76, 0x4a, 0x60, 0x3e, 0x00, 0xb0, 0xed, 0x3c, 0x7c, 0x08, 0x01, 0xbf, 
0x1e, 0x3b, 0xcb, 0x3e, 0x30, 0x1e, 0x6f, 0x3f, 0x23, 0x41, 0x43, 0x3f, 
0x1c, 0x74, 0xa0, 0x3e, 0x88, 0x1c, 0xb4, 0xbf, 0x64, 0x7c, 0x8b, 0x3f, 
0xa0, 0x09, 0x88, 0xbe, 0x65, 0x35, 0x8b, 0x3e, 0x4a, 0xec, 0x9c, 0xbf, 
0x72, 0x8e, 0x28, 0xbe, 0x07, 0x48, 0xf3, 0xbf, 0xa0, 0x82, 0xc5, 0xbf, 
0xcc, 0xb5, 0x7c, 0x3f, 0xb7, 0xb0, 0xbe, 0xbe, 0xff, 0x21, 0x9a, 0x3e, 
0x04, 0x65, 0xd5, 0x3e, 0xba, 0x03, 0x2d, 0xbd, 0x1e, 0xec, 0x57, 0xbe, 
0x80, 0x5a, 0x06, 0x3e, 0xd0, 0x62, 0x01, 0x3e, 0xd6, 0x8b, 0x6c, 0x3f, 
0xa6, 0x85, 0xd1, 0xbe, 0xd8, 0x74, 0x5e, 0xbd, 0x9a, 0x6a, 0x89, 0x3e, 
0x29, 0xaa, 0x5e, 0x3f, 0x26, 0xca, 0x25, 0xbe, 0x73, 0xdb, 0xc2, 0x3f, 
0x2c, 0x47, 0xae, 0x3f, 0x1a, 0xd2, 0x59, 0xbe, 0x76, 0xc5, 0x88, 0xbe, 
0x6e, 0x45, 0x07, 0xbe, 0x0d, 0xb2, 0x97, 0x3f, 0xbf, 0x75, 0x9f, 0xbe, 
0x00, 0x9b, 0x9c, 0xbe, 0xc5, 0x77, 0x10, 0xbe, 0x2e, 0x4f, 0xde, 0x3e, 
0xac, 0x2a, 0xc4, 0x3f, 0xca, 0x39, 0xd1, 0xbe, 0x18, 0x22, 0x9e, 0xbd, 
0x91, 0xb9, 0x62, 0x3e, 0x10, 0xb3, 0x3d, 0x3f, 0xdc, 0x7c, 0x6f, 0xbe, 
0x2b, 0x6c, 0xdd, 0x3f, 0x18, 0x3a, 0xaa, 0x3f, 0xd2, 0x5f, 0x14, 0xbf, 
0x53, 0x11, 0x67, 0xbe, 0x12, 0x25, 0x3a, 0x3e, 0x3a, 0x0d, 0x4b, 0x3e, 
0x36, 0xea, 0x04, 0x3e, 0x6a, 0x3f, 0x9c, 0xbe, 0xd8, 0xfe, 0x6d, 0xbd, 
0x82, 0x5c, 0xc1, 0xbe, 0x05, 0x22, 0xb8, 0xbe, 0x3f, 0xb5, 0x88, 0x3e, 
0x12, 0x51, 0x8a, 0xbe, 0x6c, 0xf3, 0xb4, 0x3d, 0xee, 0x00, 0x56, 0x3e, 
0x98, 0xdc, 0x94, 0xbe, 0x70, 0x0c, 0x3b, 0xbe, 0x78, 0xf9, 0x19, 0xbe, 
0xde, 0x9f, 0x0f, 0x3e, 0x08, 0x4c, 0x92, 0xbd, 0xd5, 0xe7, 0xc6, 0x3e, 
0x53, 0xba, 0x27, 0x3f, 0x76, 0x93, 0x2a, 0xbf, 0xbf, 0xd1, 0xe1, 0xbe, 
0x01, 0x18, 0x7e, 0x3e, 0x96, 0xd2, 0x9d, 0xbe, 0xcc, 0x71, 0xb6, 0x3f, 
0x0d, 0xf4, 0x7a, 0xbe, 0x45, 0xb7, 0xca, 0x3e, 0xb8, 0xbf, 0x78, 0x3e, 
0x1e, 0xd7, 0x9b, 0x3f, 0x00, 0x02, 0xf8, 0x3a, 0x4a, 0xbf, 0xdd, 0x3f, 
0xdf, 0xde, 0xc3, 0x3f, 0x39, 0x17, 0xf9, 0xbe, 0x4e, 0xcb, 0x08, 0xbe, 
0xf6, 0x03, 0xc9, 0xbe, 0x1f, 0xcb, 0x7a, 0x3f, 0x64, 0x63, 0x38, 0xbf, 
0x85, 0xe4, 0xe7, 0xbe, 0x06, 0xbb, 0x5d, 0x3e, 0x0c, 0x14, 0x6b, 0x3d, 
0xa7, 0xca, 0xf0, 0x3f, 0xa7, 0xf1, 0xe6, 0xbd, 0xd0, 0x5e, 0x96, 0xbe, 
0x13, 0xf6, 0x29, 0x3f, 0xc0, 0x13, 0x97, 0x3f, 0x00, 0x60, 0x0b, 0xba, 
0x31, 0x33, 0xd1, 0x3f, 0x08, 0x03, 0x06, 0x40, 0xda, 0xe4, 0xc0, 0xbe, 
0x79, 0x17, 0xb2, 0x3e, 0x86, 0x03, 0x7e, 0x3e, 0xd0, 0x34, 0xcf, 0xbe, 
0x29, 0x84, 0xc6, 0xbd, 0x05, 0x7d, 0x72, 0x3e, 0x44, 0x52, 0xa5, 0xbe, 
0xcb, 0x38, 0xa2, 0xbe, 0x6d, 0x08, 0xe5, 0x3d, 0xa0, 0xa9, 0xe5, 0xbd, 
0x60, 0x50, 0xc7, 0xbe, 0x0e, 0x06, 0x48, 0x3d, 0x26, 0x0b, 0xc9, 0x3d, 
0xa2, 0x32, 0x74, 0x3e, 0xb5, 0xed, 0x9f, 0xbe, 0x48, 0x78, 0x49, 0xbd, 
0x1f, 0x46, 0x40, 0x3e, 0x00, 0xb5, 0xae, 0xbb, 0x9e, 0xfe, 0xff, 0xff, 
0x04, 0x00, 0x00, 0x00, 0xc0, 0x00, 0x00, 0x00, 0x63, 0x95, 0xe0, 0xbf, 
0x5a, 0x35, 0x1e, 0x40, 0xa5, 0x0b, 0x8e, 0x3f, 0xb2, 0xe9, 0x6f, 0x3f, 
0xfc, 0x95, 0xb7, 0xbf, 0x79, 0xcd, 0x0c, 0x3f, 0x02, 0x55, 0x43, 0xbf, 
0x88, 0x43, 0x85, 0xbe, 0x65, 0x62, 0x00, 0x3f, 0xb1, 0x04, 0x3c, 0xbf, 
0xa4, 0x66, 0x3e, 0x3f, 0xc2, 0x86, 0xcf, 0x3f, 0x44, 0xd8, 0x91, 0xbe, 
0x2d, 0x1e, 0xee, 0x3f, 0x42, 0xff, 0x6f, 0x3f, 0x09, 0xb8, 0x73, 0xbe, 
0xfd, 0xff, 0xf5, 0xbe, 0xd5, 0x2e, 0xf5, 0xbf, 0x02, 0xbc, 0x94, 0xbf, 
0x77, 0xb0, 0xc1, 0x3e, 0xfb, 0xa7, 0x3b, 0x3f, 0xb2, 0xed, 0xaf, 0x3e, 
0xcc, 0x30, 0x99, 0x3d, 0x8a, 0xe9, 0x9c, 0x3c, 0x28, 0x9c, 0xf5, 0xbe, 
0x36, 0x2b, 0x12, 0x3f, 0x7b, 0xab, 0x37, 0xbe, 0x35, 0xbd, 0x9c, 0xbe, 
0x3c, 0x60, 0xb3, 0x3e, 0x70, 0xfa, 0x10, 0xc0, 0x2e, 0xc8, 0xa0, 0xbe, 
0x55, 0x7d, 0x96, 0x3e, 0xcc, 0x58, 0x5a, 0x3f, 0x01, 0x0d, 0x54, 0xbf, 
0x4e, 0x88, 0xe3, 0xbc, 0x4b, 0x35, 0x04, 0xc0, 0xf1, 0x2c, 0x4a, 0x3f, 
0x2a, 0xce, 0x24, 0xc0, 0x04, 0x10, 0x5c, 0x3b, 0xfd, 0x9a, 0xfa, 0x3e, 
0xdd, 0x27, 0xdd, 0x3e, 0x2d, 0x95, 0x8b, 0x3f, 0x99, 0x32, 0x42, 0xbf, 
0x09, 0x5d, 0x65, 0xc0, 0x9c, 0x84, 0xf2, 0xbd, 0x85, 0xc2, 0x1c, 0xbf, 
0x07, 0x00, 0x38, 0xc0, 0xa1, 0xee, 0xf8, 0x3e, 0x58, 0xfa, 0xff, 0xff, 
0x5c, 0xfa, 0xff, 0xff, 0x0f, 0x00, 0x00, 0x00, 0x4d, 0x4c, 0x49, 0x52, 
0x20, 0x43, 0x6f, 0x6e, 0x76, 0x65, 0x72, 0x74, 0x65, 0x64, 0x2e, 0x00, 
0x01, 0x00, 0x00, 0x00, 0x14, 0x00, 0x00, 0x00, 0x00, 0x00, 0x0e, 0x00, 
0x18, 0x00, 0x14, 0x00, 0x10, 0x00, 0x0c, 0x00, 0x08, 0x00, 0x04, 0x00, 
0x0e, 0x00, 0x00, 0x00, 0x14, 0x00, 0x00, 0x00, 0x1c, 0x00, 0x00, 0x00, 
0x34, 0x01, 0x00, 0x00, 0x38, 0x01, 0x00, 0x00, 0x3c, 0x01, 0x00, 0x00, 
0x04, 0x00, 0x00, 0x00, 0x6d, 0x61, 0x69, 0x6e, 0x00, 0x00, 0x00, 0x00, 
0x04, 0x00, 0x00, 0x00, 0xdc, 0x00, 0x00, 0x00, 0x94, 0x00, 0x00, 0x00, 
0x50, 0x00, 0x00, 0x00, 0x14, 0x00, 0x00, 0x00, 0x00, 0x00, 0x0e, 0x00, 
0x1a, 0x00, 0x14, 0x00, 0x10, 0x00, 0x0c, 0x00, 0x0b, 0x00, 0x04, 0x00, 
0x0e, 0x00, 0x00, 0x00, 0x1c, 0x00, 0x00, 0x00, 0x00, 0x00, 0x00, 0x09, 
0x1c, 0x00, 0x00, 0x00, 0x20, 0x00, 0x00, 0x00, 0x01, 0x00, 0x00, 0x00, 
0x00, 0x00, 0x06, 0x00, 0x08, 0x00, 0x04, 0x00, 0x06, 0x00, 0x00, 0x00, 
0x00, 0x00, 0x80, 0x3f, 0x01, 0x00, 0x00, 0x00, 0x0a, 0x00, 0x00, 0x00, 
0x01, 0x00, 0x00, 0x00, 0x09, 0x00, 0x00, 0x00, 0xce, 0xff, 0xff, 0xff, 
0x10, 0x00, 0x00, 0x00, 0x00, 0x00, 0x00, 0x08, 0x0c, 0x00, 0x00, 0x00, 
0x10, 0x00, 0x00, 0x00, 0x20, 0xfb, 0xff, 0xff, 0x01, 0x00, 0x00, 0x00, 
0x09, 0x00, 0x00, 0x00, 0x03, 0x00, 0x00, 0x00, 0x08, 0x00, 0x00, 0x00, 
0x01, 0x00, 0x00, 0x00, 0x03, 0x00, 0x00, 0x00, 0x00, 0x00, 0x0e, 0x00, 
0x14, 0x00, 0x00, 0x00, 0x10, 0x00, 0x0c, 0x00, 0x0b, 0x00, 0x04, 0x00, 
0x0e, 0x00, 0x00, 0x00, 0x10, 0x00, 0x00, 0x00, 0x00, 0x00, 0x00, 0x08, 
0x10, 0x00, 0x00, 0x00, 0x14, 0x00, 0x00, 0x00, 0xba, 0xff, 0xff, 0xff, 
0x00, 0x00, 0x00, 0x01, 0x01, 0x00, 0x00, 0x00, 0x08, 0x00, 0x00, 0x00, 
0x03, 0x00, 0x00, 0x00, 0x07, 0x00, 0x00, 0x00, 0x02, 0x00, 0x00, 0x00, 
0x04, 0x00, 0x00, 0x00, 0x00, 0x00, 0x0e, 0x00, 0x16, 0x00, 0x00, 0x00, 
0x10, 0x00, 0x0c, 0x00, 0x0b, 0x00, 0x04, 0x00, 0x0e, 0x00, 0x00, 0x00, 
0x18, 0x00, 0x00, 0x00, 0x00, 0x00, 0x00, 0x08, 0x18, 0x00, 0x00, 0x00, 
0x1c, 0x00, 0x00, 0x00, 0x00, 0x00, 0x06, 0x00, 0x08, 0x00, 0x07, 0x00, 
0x06, 0x00, 0x00, 0x00, 0x00, 0x00, 0x00, 0x01, 0x01, 0x00, 0x00, 0x00, 
0x07, 0x00, 0x00, 0x00, 0x03, 0x00, 0x00, 0x00, 0x00, 0x00, 0x00, 0x00, 
0x06, 0x00, 0x00, 0x00, 0x05, 0x00, 0x00, 0x00, 0x01, 0x00, 0x00, 0x00, 
0x0a, 0x00, 0x00, 0x00, 0x01, 0x00, 0x00, 0x00, 0x00, 0x00, 0x00, 0x00, 
0x0b, 0x00, 0x00, 0x00, 0xf8, 0x03, 0x00, 0x00, 0xa0, 0x03, 0x00, 0x00, 
0x48, 0x03, 0x00, 0x00, 0x0c, 0x03, 0x00, 0x00, 0xd0, 0x02, 0x00, 0x00, 
0x74, 0x02, 0x00, 0x00, 0x24, 0x02, 0x00, 0x00, 0x84, 0x01, 0x00, 0x00, 
0xe4, 0x00, 0x00, 0x00, 0x60, 0x00, 0x00, 0x00, 0x04, 0x00, 0x00, 0x00, 
0x4a, 0xfc, 0xff, 0xff, 0x00, 0x00, 0x00, 0x01, 0x14, 0x00, 0x00, 0x00, 
0x1c, 0x00, 0x00, 0x00, 0x1c, 0x00, 0x00, 0x00, 0x0b, 0x00, 0x00, 0x00, 
0x34, 0x00, 0x00, 0x00, 0x02, 0x00, 0x00, 0x00, 0xff, 0xff, 0xff, 0xff, 
0x03, 0x00, 0x00, 0x00, 0x34, 0xfc, 0xff, 0xff, 0x1b, 0x00, 0x00, 0x00, 
0x53, 0x74, 0x61, 0x74, 0x65, 0x66, 0x75, 0x6c, 0x50, 0x61, 0x72, 0x74, 
0x69, 0x74, 0x69, 0x6f, 0x6e, 0x65, 0x64, 0x43, 0x61, 0x6c, 0x6c, 0x5f, 
0x31, 0x3a, 0x30, 0x00, 0x02, 0x00, 0x00, 0x00, 0x01, 0x00, 0x00, 0x00, 
0x03, 0x00, 0x00, 0x00, 0xa2, 0xfc, 0xff, 0xff, 0x00, 0x00, 0x00, 0x01, 
0x14, 0x00, 0x00, 0x00, 0x1c, 0x00, 0x00, 0x00, 0x1c, 0x00, 0x00, 0x00, 
0x0a, 0x00, 0x00, 0x00, 0x5c, 0x00, 0x00, 0x00, 0x02, 0x00, 0x00, 0x00, 
0xff, 0xff, 0xff, 0xff, 0x03, 0x00, 0x00, 0x00, 0x8c, 0xfc, 0xff, 0xff, 
0x40, 0x00, 0x00, 0x00, 0x73, 0x65, 0x71, 0x75, 0x65, 0x6e, 0x74, 0x69, 
0x61, 0x6c, 0x5f, 0x31, 0x5f, 0x31, 0x2f, 0x64, 0x65, 0x6e, 0x73, 0x65, 
0x5f, 0x35, 0x5f, 0x31, 0x2f, 0x4d, 0x61, 0x74, 0x4d, 0x75, 0x6c, 0x3b, 
0x73, 0x65, 0x71, 0x75, 0x65, 0x6e, 0x74, 0x69, 0x61, 0x6c, 0x5f, 0x31, 
0x5f, 0x31, 0x2f, 0x64, 0x65, 0x6e, 0x73, 0x65, 0x5f, 0x35, 0x5f, 0x31, 
0x2f, 0x42, 0x69, 0x61, 0x73, 0x41, 0x64, 0x64, 0x00, 0x00, 0x00, 0x00, 
0x02, 0x00, 0x00, 0x00, 0x01, 0x00, 0x00, 0x00, 0x03, 0x00, 0x00, 0x00, 
0x22, 0xfd, 0xff, 0xff, 0x00, 0x00, 0x00, 0x01, 0x14, 0x00, 0x00, 0x00, 
0x1c, 0x00, 0x00, 0x00, 0x1c, 0x00, 0x00, 0x00, 0x09, 0x00, 0x00, 0x00, 
0x78, 0x00, 0x00, 0x00, 0x02, 0x00, 0x00, 0x00, 0xff, 0xff, 0xff, 0xff, 
0x10, 0x00, 0x00, 0x00, 0x0c, 0xfd, 0xff, 0xff, 0x5e, 0x00, 0x00, 0x00, 
0x73, 0x65, 0x71, 0x75, 0x65, 0x6e, 0x74, 0x69, 0x61, 0x6c, 0x5f, 0x31, 
0x5f, 0x31, 0x2f, 0x64, 0x65, 0x6e, 0x73, 0x65, 0x5f, 0x34, 0x5f, 0x31, 
0x2f, 0x4d, 0x61, 0x74, 0x4d, 0x75, 0x6c, 0x3b, 0x73, 0x65, 0x71, 0x75, 
0x65, 0x6e, 0x74, 0x69, 0x61, 0x6c, 0x5f, 0x31, 0x5f, 0x31, 0x2f, 0x64, 
0x65, 0x6e, 0x73, 0x65, 0x5f, 0x34, 0x5f, 0x31, 0x2f, 0x52, 0x65, 0x6c, 
0x75, 0x3b, 0x73, 0x65, 0x71, 0x75, 0x65, 0x6e, 0x74, 0x69, 0x61, 0x6c, 
0x5f, 0x31, 0x5f, 0x31, 0x2f, 0x64, 0x65, 0x6e, 0x73, 0x65, 0x5f, 0x34, 
0x5f, 0x31, 0x2f, 0x42, 0x69, 0x61, 0x73, 0x41, 0x64, 0x64, 0x00, 0x00, 
0x02, 0x00, 0x00, 0x00, 0x01, 0x00, 0x00, 0x00, 0x10, 0x00, 0x00, 0x00, 
0xbe, 0xfd, 0xff, 0xff, 0x00, 0x00, 0x00, 0x01, 0x14, 0x00, 0x00, 0x00, 
0x1c, 0x00, 0x00, 0x00, 0x1c, 0x00, 0x00, 0x00, 0x08, 0x00, 0x00, 0x00, 
0x78, 0x00, 0x00, 0x00, 0x02, 0x00, 0x00, 0x00, 0xff, 0xff, 0xff, 0xff, 
0x10, 0x00, 0x00, 0x00, 0xa8, 0xfd, 0xff, 0xff, 0x5e, 0x00, 0x00, 0x00, 
0x73, 0x65, 0x71, 0x75, 0x65, 0x6e, 0x74, 0x69, 0x61, 0x6c, 0x5f, 0x31, 
0x5f, 0x31, 0x2f, 0x64, 0x65, 0x6e, 0x73, 0x65, 0x5f, 0x33, 0x5f, 0x31, 
0x2f, 0x4d, 0x61, 0x74, 0x4d, 0x75, 0x6c, 0x3b, 0x73, 0x65, 0x71, 0x75, 
0x65, 0x6e, 0x74, 0x69, 0x61, 0x6c, 0x5f, 0x31, 0x5f, 0x31, 0x2f, 0x64, 
0x65, 0x6e, 0x73, 0x65, 0x5f, 0x33, 0x5f, 0x31, 0x2f, 0x52, 0x65, 0x6c, 
0x75, 0x3b, 0x73, 0x65, 0x71, 0x75, 0x65, 0x6e, 0x74, 0x69, 0x61, 0x6c, 
0x5f, 0x31, 0x5f, 0x31, 0x2f, 0x64, 0x65, 0x6e, 0x73, 0x65, 0x5f, 0x33, 
0x5f, 0x31, 0x2f, 0x42, 0x69, 0x61, 0x73, 0x41, 0x64, 0x64, 0x00, 0x00, 
0x02, 0x00, 0x00, 0x00, 0x01, 0x00, 0x00, 0x00, 0x10, 0x00, 0x00, 0x00, 
0xae, 0xfe, 0xff, 0xff, 0x00, 0x00, 0x00, 0x01, 0x10, 0x00, 0x00, 0x00, 
0x10, 0x00, 0x00, 0x00, 0x07, 0x00, 0x00, 0x00, 0x2c, 0x00, 0x00, 0x00, 
0x34, 0xfe, 0xff, 0xff, 0x1f, 0x00, 0x00, 0x00, 0x73, 0x65, 0x71, 0x75, 
0x65, 0x6e, 0x74, 0x69, 0x61, 0x6c, 0x5f, 0x31, 0x5f, 0x31, 0x2f, 0x64, 
0x65, 0x6e, 0x73, 0x65, 0x5f, 0x33, 0x5f, 0x31, 0x2f, 0x4d, 0x61, 0x74, 
0x4d, 0x75, 0x6c, 0x00, 0x02, 0x00, 0x00, 0x00, 0x10, 0x00, 0x00, 0x00, 
0x02, 0x00, 0x00, 0x00, 0xfa, 0xfe, 0xff, 0xff, 0x00, 0x00, 0x00, 0x01, 
0x10, 0x00, 0x00, 0x00, 0x10, 0x00, 0x00, 0x00, 0x06, 0x00, 0x00, 0x00, 
0x3c, 0x00, 0x00, 0x00, 0x80, 0xfe, 0xff, 0xff, 0x2f, 0x00, 0x00, 0x00, 
0x73, 0x65, 0x71, 0x75, 0x65, 0x6e, 0x74, 0x69, 0x61, 0x6c, 0x5f, 0x31, 
0x5f, 0x31, 0x2f, 0x64, 0x65, 0x6e, 0x73, 0x65, 0x5f, 0x33, 0x5f, 0x31, 
0x2f, 0x42, 0x69, 0x61, 0x73, 0x41, 0x64, 0x64, 0x2f, 0x52, 0x65, 0x61, 
0x64, 0x56, 0x61, 0x72, 0x69, 0x61, 0x62, 0x6c, 0x65, 0x4f, 0x70, 0x00, 
0x01, 0x00, 0x00, 0x00, 0x10, 0x00, 0x00, 0x00, 0x52, 0xff, 0xff, 0xff, 
0x00, 0x00, 0x00, 0x01, 0x10, 0x00, 0x00, 0x00, 0x10, 0x00, 0x00, 0x00, 
0x05, 0x00, 0x00, 0x00, 0x1c, 0x00, 0x00, 0x00, 0xd8, 0xfe, 0xff, 0xff, 
0x0f, 0x00, 0x00, 0x00, 0x61, 0x72, 0x69, 0x74, 0x68, 0x2e, 0x63, 0x6f, 
0x6e, 0x73, 0x74, 0x61, 0x6e, 0x74, 0x33, 0x00, 0x01, 0x00, 0x00, 0x00, 
0x10, 0x00, 0x00, 0x00, 0x8a, 0xff, 0xff, 0xff, 0x00, 0x00, 0x00, 0x01, 
0x10, 0x00, 0x00, 0x00, 0x10, 0x00, 0x00, 0x00, 0x04, 0x00, 0x00, 0x00, 
0x1c, 0x00, 0x00, 0x00, 0x10, 0xff, 0xff, 0xff, 0x0f, 0x00, 0x00, 0x00, 
0x61, 0x72, 0x69, 0x74, 0x68, 0x2e, 0x63, 0x6f, 0x6e, 0x73, 0x74, 0x61, 
0x6e, 0x74, 0x32, 0x00, 0x01, 0x00, 0x00, 0x00, 0x03, 0x00, 0x00, 0x00, 
0xc2, 0xff, 0xff, 0xff, 0x00, 0x00, 0x00, 0x01, 0x10, 0x00, 0x00, 0x00, 
0x10, 0x00, 0x00, 0x00, 0x03, 0x00, 0x00, 0x00, 0x1c, 0x00, 0x00, 0x00, 
0x48, 0xff, 0xff, 0xff, 0x0f, 0x00, 0x00, 0x00, 0x61, 0x72, 0x69, 0x74, 
0x68, 0x2e, 0x63, 0x6f, 0x6e, 0x73, 0x74, 0x61, 0x6e, 0x74, 0x31, 0x00, 
0x02, 0x00, 0x00, 0x00, 0x10, 0x00, 0x00, 0x00, 0x10, 0x00, 0x00, 0x00, 
0x00, 0x00, 0x16, 0x00, 0x18, 0x00, 0x14, 0x00, 0x00, 0x00, 0x10, 0x00, 
0x0c, 0x00, 0x08, 0x00, 0x00, 0x00, 0x00, 0x00, 0x00, 0x00, 0x07, 0x00, 
0x16, 0x00, 0x00, 0x00, 0x00, 0x00, 0x00, 0x01, 0x10, 0x00, 0x00, 0x00, 
0x10, 0x00, 0x00, 0x00, 0x02, 0x00, 0x00, 0x00, 0x1c, 0x00, 0x00, 0x00, 
0x9c, 0xff, 0xff, 0xff, 0x0e, 0x00, 0x00, 0x00, 0x61, 0x72, 0x69, 0x74, 
0x68, 0x2e, 0x63, 0x6f, 0x6e, 0x73, 0x74, 0x61, 0x6e, 0x74, 0x00, 0x00, 
0x02, 0x00, 0x00, 0x00, 0x03, 0x00, 0x00, 0x00, 0x10, 0x00, 0x00, 0x00, 
0x00, 0x00, 0x16, 0x00, 0x1c, 0x00, 0x18, 0x00, 0x00, 0x00, 0x14, 0x00, 
0x10, 0x00, 0x0c, 0x00, 0x00, 0x00, 0x00, 0x00, 0x08, 0x00, 0x07, 0x00, 
0x16, 0x00, 0x00, 0x00, 0x00, 0x00, 0x00, 0x01, 0x14, 0x00, 0x00, 0x00, 
0x20, 0x00, 0x00, 0x00, 0x20, 0x00, 0x00, 0x00, 0x01, 0x00, 0x00, 0x00, 
0x40, 0x00, 0x00, 0x00, 0x02, 0x00, 0x00, 0x00, 0xff, 0xff, 0xff, 0xff, 
0x02, 0x00, 0x00, 0x00, 0x04, 0x00, 0x04, 0x00, 0x04, 0x00, 0x00, 0x00, 
0x20, 0x00, 0x00, 0x00, 0x73, 0x65, 0x72, 0x76, 0x69, 0x6e, 0x67, 0x5f, 
0x64, 0x65, 0x66, 0x61, 0x75, 0x6c, 0x74, 0x5f, 0x6b, 0x65, 0x72, 0x61, 
0x73, 0x5f, 0x74, 0x65, 0x6e, 0x73, 0x6f, 0x72, 0x5f, 0x34, 0x3a, 0x30, 
0x00, 0x00, 0x00, 0x00, 0x02, 0x00, 0x00, 0x00, 0x01, 0x00, 0x00, 0x00, 
0x02, 0x00, 0x00, 0x00, 0x02, 0x00, 0x00, 0x00, 0x20, 0x00, 0x00, 0x00, 
0x04, 0x00, 0x00, 0x00, 0xf4, 0xff, 0xff, 0xff, 0x19, 0x00, 0x00, 0x00, 
0x00, 0x00, 0x00, 0x19, 0x0c, 0x00, 0x0c, 0x00, 0x0b, 0x00, 0x00, 0x00, 
0x00, 0x00, 0x04, 0x00, 0x0c, 0x00, 0x00, 0x00, 0x09, 0x00, 0x00, 0x00, 
0x00, 0x00, 0x00, 0x09, 
};

const unsigned int motor_model_len = 3604;